01011101100010001000101000001000 00101010000010000010110001110000 01011110110001101010111111010100 
00011001111000100001101110110010 01110101111000001000010110001010 01010111101001100001101000101001 
01010011100110011100011001010100 00100000111011100001001101001000 01000100001001110000011010011010 
